TRT-7000-EntropyCalibration2
tensorrt_215_i0_0: 3cb3bb8e
tensorrt_215_i0_1: 3cb3bb8e
tensorrt_215_i33_0: 3cd13aca
tensorrt_215_i66_0: 3ce855d8
(Unnamed Layer* 0) [Concatenation]_output: 3cb3bb8e
(Unnamed Layer* 1) [Convolution]_output: 3c769f56
(Unnamed Layer* 2) [Scale]_output: 3d0f3ca9
(Unnamed Layer* 3) [Activation]_output: 3beddb83
(Unnamed Layer* 4) [ElementWise]_output: 3c3917bc
(Unnamed Layer* 5) [Convolution]_output: 3bb583e6
(Unnamed Layer* 6) [Scale]_output: 3d20aeb3
(Unnamed Layer* 7) [Activation]_output: 3bfbc122
(Unnamed Layer* 8) [ElementWise]_output: 3cb0dbb3
(Unnamed Layer* 9) [Convolution]_output: 3c6452cb
(Unnamed Layer* 10) [Scale]_output: 3d866366
(Unnamed Layer* 11) [Activation]_output: 3c008a4d
(Unnamed Layer* 12) [ElementWise]_output: 3d019314
(Unnamed Layer* 13) [Convolution]_output: 3c260b71
(Unnamed Layer* 14) [Scale]_output: 3d7604c3
(Unnamed Layer* 15) [Activation]_output: 3c02f74d
(Unnamed Layer* 16) [ElementWise]_output: 3d019314
(Unnamed Layer* 17) [Concatenation]_output: 3d019314
(Unnamed Layer* 18) [Convolution]_output: 3ca0ae56
(Unnamed Layer* 19) [Scale]_output: 3e179c5a
(Unnamed Layer* 20) [Activation]_output: 3c053a73
(Unnamed Layer* 21) [ElementWise]_output: 3d92a7e3
(Unnamed Layer* 22) [Convolution]_output: 3dcb3d05
(Unnamed Layer* 23) [Constant]_output: 3d4d678b
(Unnamed Layer* 24) [ElementWise]_output: 3e083ee2
(Unnamed Layer* 25) [Shuffle]_output: 3e083ee2
tensorrt_output_0: 3e083ee2
(Unnamed Layer* 27) [Convolution]_output: 3d6e80bc
(Unnamed Layer* 28) [Scale]_output: 3d5deb7b
(Unnamed Layer* 29) [Activation]_output: 3c02aec6
(Unnamed Layer* 30) [ElementWise]_output: 3cd13aca
(Unnamed Layer* 31) [Concatenation]_output: 3cd13aca
(Unnamed Layer* 32) [Convolution]_output: 3c4e30bb
(Unnamed Layer* 33) [Scale]_output: 3d5d5b48
(Unnamed Layer* 34) [Activation]_output: 3c03a13a
(Unnamed Layer* 35) [ElementWise]_output: 3cb0a405
(Unnamed Layer* 36) [Convolution]_output: 3c1f4180
(Unnamed Layer* 37) [Scale]_output: 3d5522d1
(Unnamed Layer* 38) [Activation]_output: 3c00eed7
(Unnamed Layer* 39) [ElementWise]_output: 3cb27c30
(Unnamed Layer* 40) [Convolution]_output: 3c8491db
(Unnamed Layer* 41) [Scale]_output: 3d9fdde9
(Unnamed Layer* 42) [Activation]_output: 3c0402f4
(Unnamed Layer* 43) [ElementWise]_output: 3d121aba
(Unnamed Layer* 44) [Convolution]_output: 3c4c97b4
(Unnamed Layer* 45) [Scale]_output: 3d410ca1
(Unnamed Layer* 46) [Activation]_output: 3c0402f3
(Unnamed Layer* 47) [ElementWise]_output: 3d121aba
(Unnamed Layer* 48) [Concatenation]_output: 3d121aba
(Unnamed Layer* 49) [Convolution]_output: 3ca5611a
(Unnamed Layer* 50) [Scale]_output: 3e0f3170
(Unnamed Layer* 51) [Activation]_output: 3c010a14
(Unnamed Layer* 52) [ElementWise]_output: 3d747359
(Unnamed Layer* 53) [Convolution]_output: 3dc017b7
(Unnamed Layer* 54) [Constant]_output: 3d5a0d47
(Unnamed Layer* 55) [ElementWise]_output: 3ded3029
(Unnamed Layer* 56) [Shuffle]_output: 3ded3029
tensorrt_output_1: 3ded3029
(Unnamed Layer* 58) [Convolution]_output: 3d5ca619
(Unnamed Layer* 59) [Scale]_output: 3d856dcc
(Unnamed Layer* 60) [Activation]_output: 3c08756f
(Unnamed Layer* 61) [ElementWise]_output: 3ce855d8
(Unnamed Layer* 62) [Concatenation]_output: 3ce855d8
(Unnamed Layer* 63) [Convolution]_output: 3c4d07fa
(Unnamed Layer* 64) [Scale]_output: 3d8fcabf
(Unnamed Layer* 65) [Activation]_output: 3c08260f
(Unnamed Layer* 66) [ElementWise]_output: 3cd20a19
(Unnamed Layer* 67) [Convolution]_output: 3c194523
(Unnamed Layer* 68) [Scale]_output: 3d8a5b19
(Unnamed Layer* 69) [Activation]_output: 3c05b951
(Unnamed Layer* 70) [ElementWise]_output: 3ce68886
(Unnamed Layer* 71) [Convolution]_output: 3ca81bfc
(Unnamed Layer* 72) [Scale]_output: 3db12891
(Unnamed Layer* 73) [Activation]_output: 3c0531f5
(Unnamed Layer* 74) [ElementWise]_output: 3d01f982
(Unnamed Layer* 75) [Convolution]_output: 3c539fcc
(Unnamed Layer* 76) [Scale]_output: 3d7916e3
(Unnamed Layer* 77) [Activation]_output: 3c02225a
(Unnamed Layer* 78) [ElementWise]_output: 3d01f982
(Unnamed Layer* 79) [Concatenation]_output: 3d01f982
(Unnamed Layer* 80) [Convolution]_output: 3cdd65ee
(Unnamed Layer* 81) [Scale]_output: 3ddb9ed8
(Unnamed Layer* 82) [Activation]_output: 3c075ea3
(Unnamed Layer* 83) [ElementWise]_output: 3d446fc8
(Unnamed Layer* 84) [Convolution]_output: 3db8b9fc
(Unnamed Layer* 85) [Constant]_output: 3d7253ad
(Unnamed Layer* 86) [ElementWise]_output: 3de22be1
(Unnamed Layer* 87) [Shuffle]_output: 3de22be1
tensorrt_output_2: 3de22be1
