TRT-7000-EntropyCalibration2
tensorrt_184_i0_0: 3cd539ac
tensorrt_184_i0_1: 3cd539ac
(Unnamed Layer* 0) [Concatenation]_output: 3cd539ac
(Unnamed Layer* 1) [Convolution]_output: 3c9d89b4
(Unnamed Layer* 2) [Scale]_output: 3d3f8575
(Unnamed Layer* 3) [Activation]_output: 3bfd4a6b
(Unnamed Layer* 4) [ElementWise]_output: 3c7f423f
(Unnamed Layer* 5) [Convolution]_output: 3c14a88f
(Unnamed Layer* 6) [Scale]_output: 3d3ce84e
(Unnamed Layer* 7) [Activation]_output: 3c01be72
(Unnamed Layer* 8) [ElementWise]_output: 3ce999e6
(Unnamed Layer* 9) [Convolution]_output: 3ca93cb9
(Unnamed Layer* 10) [Scale]_output: 3d577451
(Unnamed Layer* 11) [Activation]_output: 3c0a29e2
(Unnamed Layer* 12) [ElementWise]_output: 3cb1f133
(Unnamed Layer* 13) [Convolution]_output: 3c8ff06a
(Unnamed Layer* 14) [Scale]_output: 3d3d1d55
(Unnamed Layer* 15) [Activation]_output: 3c029950
(Unnamed Layer* 16) [ElementWise]_output: 3cb1f133
(Unnamed Layer* 17) [Concatenation]_output: 3cb1f133
(Unnamed Layer* 18) [Convolution]_output: 3c5844a0
(Unnamed Layer* 19) [Scale]_output: 3d7bb5c4
(Unnamed Layer* 20) [Activation]_output: 3c01005f
(Unnamed Layer* 21) [ElementWise]_output: 3cb17ad2
(Unnamed Layer* 22) [Convolution]_output: 3ca118e8
(Unnamed Layer* 23) [Scale]_output: 3d3f73f8
(Unnamed Layer* 24) [Activation]_output: 3c0063a7
tensorrt_output_0: 3d00e144
