TRT-7000-EntropyCalibration2
tensorrt_0_i0_0: 3c010a14
(Unnamed Layer* 0) [Slice]_output: 3c010a14
(Unnamed Layer* 1) [Slice]_output: 3c010a14
(Unnamed Layer* 2) [Slice]_output: 3c010a14
(Unnamed Layer* 3) [Slice]_output: 3c010a14
(Unnamed Layer* 4) [Slice]_output: 3c010a14
(Unnamed Layer* 5) [Slice]_output: 3c010a14
(Unnamed Layer* 6) [Slice]_output: 3c010a14
(Unnamed Layer* 7) [Slice]_output: 3c010a14
(Unnamed Layer* 8) [Concatenation]_output: 3c010a14
(Unnamed Layer* 9) [Convolution]_output: 3c8ea090
(Unnamed Layer* 10) [Scale]_output: 3e5fcacf
(Unnamed Layer* 11) [Activation]_output: 3c010a14
(Unnamed Layer* 12) [ElementWise]_output: 3e1df3c3
(Unnamed Layer* 13) [Convolution]_output: 3e52f5bd
(Unnamed Layer* 14) [Scale]_output: 3ed47f76
(Unnamed Layer* 15) [Activation]_output: 3c010a14
(Unnamed Layer* 16) [ElementWise]_output: 3e108c25
(Unnamed Layer* 17) [Convolution]_output: 3e671b0f
(Unnamed Layer* 18) [Scale]_output: 3e057fe7
(Unnamed Layer* 19) [Activation]_output: 3c002631
(Unnamed Layer* 20) [ElementWise]_output: 3ce804f5
(Unnamed Layer* 21) [Convolution]_output: 3c8ca2da
(Unnamed Layer* 22) [Scale]_output: 3e0f3526
(Unnamed Layer* 23) [Activation]_output: 3c01106e
(Unnamed Layer* 24) [ElementWise]_output: 3d403338
(Unnamed Layer* 25) [Convolution]_output: 3d60a591
(Unnamed Layer* 26) [Scale]_output: 3e040eaa
(Unnamed Layer* 27) [Activation]_output: 3c0111d7
(Unnamed Layer* 28) [ElementWise]_output: 3d923359
(Unnamed Layer* 29) [ElementWise]_output: 3dc1ab9c
(Unnamed Layer* 30) [Convolution]_output: 3e54f06f
(Unnamed Layer* 31) [Scale]_output: 3e61f707
(Unnamed Layer* 32) [Activation]_output: 3c0e49db
(Unnamed Layer* 33) [ElementWise]_output: 3dc1ab9c
(Unnamed Layer* 34) [Concatenation]_output: 3dc1ab9c
(Unnamed Layer* 35) [Convolution]_output: 3d802c35
(Unnamed Layer* 36) [Scale]_output: 3dc0b52d
(Unnamed Layer* 37) [Activation]_output: 3c00e746
(Unnamed Layer* 38) [ElementWise]_output: 3d11f8a3
(Unnamed Layer* 39) [Convolution]_output: 3d75c6ba
(Unnamed Layer* 40) [Scale]_output: 3d6f8c52
(Unnamed Layer* 41) [Activation]_output: 3c00a72b
(Unnamed Layer* 42) [ElementWise]_output: 3cb12e5d
(Unnamed Layer* 43) [Convolution]_output: 3ca5f338
(Unnamed Layer* 44) [Scale]_output: 3d17e859
(Unnamed Layer* 45) [Activation]_output: 3bea6c93
(Unnamed Layer* 46) [ElementWise]_output: 3c403074
(Unnamed Layer* 47) [Convolution]_output: 3bbcd9f7
(Unnamed Layer* 48) [Scale]_output: 3d4a5908
(Unnamed Layer* 49) [Activation]_output: 3c04ad6a
(Unnamed Layer* 50) [ElementWise]_output: 3d019c41
(Unnamed Layer* 51) [Convolution]_output: 3d047ee8
(Unnamed Layer* 52) [Scale]_output: 3d30f027
(Unnamed Layer* 53) [Activation]_output: 3c00d502
(Unnamed Layer* 54) [ElementWise]_output: 3c5bfbb0
(Unnamed Layer* 55) [ElementWise]_output: 3cd12c35
(Unnamed Layer* 56) [Convolution]_output: 3c2912d1
(Unnamed Layer* 57) [Scale]_output: 3d6dc326
(Unnamed Layer* 58) [Activation]_output: 3c02ab89
(Unnamed Layer* 59) [ElementWise]_output: 3ca6aeec
(Unnamed Layer* 60) [Convolution]_output: 3c917509
(Unnamed Layer* 61) [Scale]_output: 3d728217
(Unnamed Layer* 62) [Activation]_output: 3c02c279
(Unnamed Layer* 63) [ElementWise]_output: 3cc3c554
(Unnamed Layer* 64) [ElementWise]_output: 3d3dace0
(Unnamed Layer* 65) [Convolution]_output: 3c8fdabd
(Unnamed Layer* 66) [Scale]_output: 3d89a08b
(Unnamed Layer* 67) [Activation]_output: 3c00f42a
(Unnamed Layer* 68) [ElementWise]_output: 3cd43774
(Unnamed Layer* 69) [Convolution]_output: 3c9e20ce
(Unnamed Layer* 70) [Scale]_output: 3d93a030
(Unnamed Layer* 71) [Activation]_output: 3c00e7cc
(Unnamed Layer* 72) [ElementWise]_output: 3d12e395
(Unnamed Layer* 73) [ElementWise]_output: 3d26f1a4
(Unnamed Layer* 74) [Convolution]_output: 3c91d008
(Unnamed Layer* 75) [Scale]_output: 3d9a24ca
(Unnamed Layer* 76) [Activation]_output: 3c00a3f2
(Unnamed Layer* 77) [ElementWise]_output: 3d26f1a4
(Unnamed Layer* 78) [Concatenation]_output: 3d26f1a4
(Unnamed Layer* 79) [Convolution]_output: 3d134f12
(Unnamed Layer* 80) [Scale]_output: 3d559dd2
(Unnamed Layer* 81) [Activation]_output: 3c015b4c
tensorrt_output_2: 3cb3bb8f
(Unnamed Layer* 83) [Convolution]_output: 3ccddb24
(Unnamed Layer* 84) [Scale]_output: 3d6cecb8
(Unnamed Layer* 85) [Activation]_output: 3c00fd13
(Unnamed Layer* 86) [ElementWise]_output: 3cea308e
(Unnamed Layer* 87) [Convolution]_output: 3c7c3dab
(Unnamed Layer* 88) [Scale]_output: 3d2757cf
(Unnamed Layer* 89) [Activation]_output: 3bf616d6
(Unnamed Layer* 90) [ElementWise]_output: 3bfc4366
(Unnamed Layer* 91) [Convolution]_output: 3baf24f8
(Unnamed Layer* 92) [Scale]_output: 3da187e1
(Unnamed Layer* 93) [Activation]_output: 3c020dd6
(Unnamed Layer* 94) [ElementWise]_output: 3d02555b
(Unnamed Layer* 95) [Convolution]_output: 3d00e2b1
(Unnamed Layer* 96) [Scale]_output: 3d2204a1
(Unnamed Layer* 97) [Activation]_output: 3c01280d
(Unnamed Layer* 98) [ElementWise]_output: 3c311b02
(Unnamed Layer* 99) [ElementWise]_output: 3cd11303
(Unnamed Layer* 100) [Convolution]_output: 3bfaf25f
(Unnamed Layer* 101) [Scale]_output: 3d75703b
(Unnamed Layer* 102) [Activation]_output: 3c0122b3
(Unnamed Layer* 103) [ElementWise]_output: 3cb34b3c
(Unnamed Layer* 104) [Convolution]_output: 3c9c32e1
(Unnamed Layer* 105) [Scale]_output: 3d50375d
(Unnamed Layer* 106) [Activation]_output: 3c02710e
(Unnamed Layer* 107) [ElementWise]_output: 3cb16fcf
(Unnamed Layer* 108) [ElementWise]_output: 3d0ee354
(Unnamed Layer* 109) [Convolution]_output: 3c63cefe
(Unnamed Layer* 110) [Scale]_output: 3d7bf538
(Unnamed Layer* 111) [Activation]_output: 3c00c1cc
(Unnamed Layer* 112) [ElementWise]_output: 3cb2a5a3
(Unnamed Layer* 113) [Convolution]_output: 3c974df2
(Unnamed Layer* 114) [Scale]_output: 3da0de37
(Unnamed Layer* 115) [Activation]_output: 3c0636c7
(Unnamed Layer* 116) [ElementWise]_output: 3d0026fa
(Unnamed Layer* 117) [ElementWise]_output: 3d278f2b
(Unnamed Layer* 118) [Convolution]_output: 3c67947d
(Unnamed Layer* 119) [Scale]_output: 3d926001
(Unnamed Layer* 120) [Activation]_output: 3c04133f
(Unnamed Layer* 121) [ElementWise]_output: 3d278f2b
(Unnamed Layer* 122) [Concatenation]_output: 3d278f2b
(Unnamed Layer* 123) [Convolution]_output: 3ce6aab4
(Unnamed Layer* 124) [Scale]_output: 3d88c38c
(Unnamed Layer* 125) [Activation]_output: 3c00ec4c
tensorrt_output_1: 3cd539ae
(Unnamed Layer* 127) [Convolution]_output: 3ca37ca7
(Unnamed Layer* 128) [Scale]_output: 3d8106e7
(Unnamed Layer* 129) [Activation]_output: 3c00b4d4
(Unnamed Layer* 130) [ElementWise]_output: 3ce73e84
(Unnamed Layer* 131) [Convolution]_output: 3c92ffee
(Unnamed Layer* 132) [Scale]_output: 3d3b2230
(Unnamed Layer* 133) [Activation]_output: 3c006e0a
(Unnamed Layer* 134) [ElementWise]_output: 3d68d2cf
(Unnamed Layer* 135) [Pooling]_output: 3d68d2cf
(Unnamed Layer* 136) [Pooling]_output: 3d68d2cf
(Unnamed Layer* 137) [Pooling]_output: 3d68d2cf
(Unnamed Layer* 138) [Concatenation]_output: 3d68d2cf
(Unnamed Layer* 139) [Convolution]_output: 3d960caa
(Unnamed Layer* 140) [Scale]_output: 3d7539dc
(Unnamed Layer* 141) [Activation]_output: 3c036266
(Unnamed Layer* 142) [ElementWise]_output: 3c98e161
(Unnamed Layer* 143) [Convolution]_output: 3c5ebe03
(Unnamed Layer* 144) [Scale]_output: 3d96c602
(Unnamed Layer* 145) [Activation]_output: 3c017a77
(Unnamed Layer* 146) [ElementWise]_output: 3ce7fc6c
(Unnamed Layer* 147) [Convolution]_output: 3c695cff
(Unnamed Layer* 148) [Scale]_output: 3da1dc0b
(Unnamed Layer* 149) [Activation]_output: 3c00cbbf
(Unnamed Layer* 150) [ElementWise]_output: 3d11a58a
(Unnamed Layer* 151) [Convolution]_output: 3ce531e9
(Unnamed Layer* 152) [Scale]_output: 3d9e2a97
(Unnamed Layer* 153) [Activation]_output: 3c0721b2
(Unnamed Layer* 154) [ElementWise]_output: 3cd46d99
(Unnamed Layer* 155) [Convolution]_output: 3c179ede
(Unnamed Layer* 156) [Scale]_output: 3d804713
(Unnamed Layer* 157) [Activation]_output: 3c00dd28
(Unnamed Layer* 158) [ElementWise]_output: 3cd46d99
(Unnamed Layer* 159) [Concatenation]_output: 3cd46d99
(Unnamed Layer* 160) [Convolution]_output: 3c4b9513
(Unnamed Layer* 161) [Scale]_output: 3d864315
(Unnamed Layer* 162) [Activation]_output: 3c00c052
(Unnamed Layer* 163) [ElementWise]_output: 3ce79e7a
(Unnamed Layer* 164) [Convolution]_output: 3c8d4cf5
(Unnamed Layer* 165) [Scale]_output: 3d61ce5a
(Unnamed Layer* 166) [Activation]_output: 3c01f8a7
tensorrt_output_0: 3cd3b8e8
